TRT-101300-EntropyCalibration2
images: 3b66eddc
/model.0/conv/Conv_output_0: 3eabf314
/model.21/Constant_7_output_0_output: 3e810a14
/model.21/Split_output_0: 3d810a14
/model.21/Split_output_1: 3e010a14
/model.21/Split_output_2: 3e810a14
/model.17/m.0/m/m.1/cv2/act/Mul_output_0: 3d474216
/model.21/Expand_1_output_0: 3f204a85
/model.20/cv2/conv/Conv_output_0: 3d8964da
ONNXTRT_Broadcast_843_output: 3e810a14
/model.20/Split_output_0: 3d025719
/model.21/Transpose_output_0: 3f204a85
/model.21/Concat_20_output_0: 3e1d4449
/model.20/m.0/cv2/conv/Conv_output_0: 3d775099
/model.21/cv3.0/cv3.0.1/cv3.0.1.1/act/Mul_output_0: 3dbf886f
/model.21/Concat_15_output_0: 3e9f4871
/model.17/m.0/cv2/act/Mul_output_0: 3ce82d7c
/model.20/m.0/Concat_output_0: 3d6786e2
/model.21/Unsqueeze_6_output_0: 3e9f4871
/model.14/cv1/conv/Conv_output_0: 3d4e1b60
/model.14/m.0/m/m.1/cv2/act/Sigmoid_output_0: 3c021425
/model.11/cv2/conv/Conv_output_0: 3d4dba6e
/model.8/cv2/act/Sigmoid_output_0: 3c08f75c
/model.20/m.0/m/m.1/cv2/act/Sigmoid_output_0: 3c053292
/model.8/m.1/m.1.1/attn/Reshape_2_output_0: 3d007120
/model.21/Constant_67_output_0_output: 3c810a14
/model.8/m.0/m.0.0/mlp/mlp.1/conv/Conv_output_0: 3d6763ec
/model.11/m.0/m/m.0/cv2/act/Sigmoid_output_0: 3c0632f0
/model.8/m.1/m.1.0/mlp/mlp.0/conv/Conv_output_0: 3d652b58
/model.8/m.1/m.1.1/mlp/mlp.1/conv/Conv_output_0: 3d54fdea
/model.21/cv2.2/cv2.2.0/act/Sigmoid_output_0: 3c00f843
/model.8/m.1/m.1.0/attn/Split_output_0: 3d31d712
/model.8/m.1/m.1.0/attn/Transpose_7_output_0: 3d5d1777
/model.8/m.0/m.0.1/attn/Split_output_0: 3d42a8d8
/model.8/m.1/m.1.0/attn/MatMul_1_output_0: 3d496ded
/model.8/m.1/m.1.0/mlp/mlp.0/act/Mul_output_0: 3ca3e213
/model.8/m.0/m.0.1/attn/Transpose_output_0: 3d5c8c9f
/model.0/act/Sigmoid_output_0: 3c010a14
/model.21/Squeeze_output_0: 3d810a14
/model.21/Squeeze_1_output_0: 3e010a14
/model.21/Squeeze_2_output_0: 3e810a14
/model.21/Unsqueeze_9_output_0: 3e1d4449
/model.21/cv3.2/cv3.2.0/cv3.2.0.1/act/Sigmoid_output_0: 3c00912d
/model.8/m.0/m.0.0/attn/MatMul_1_output_0: 3d15bb83
/model.11/Concat_output_0: 3d26e875
/model.21/Sub_output_0: 3f1f00f4
/model.21/Add_5_output_0: 3e010a14
/model.0/act/Mul_output_0: 3e8f8af5
/model.8/m.0/m.0.0/attn/Reshape_2_output_0: 3d15bb83
/model.1/conv/Conv_output_0: 3f1c4fc1
/model.1/act/Sigmoid_output_0: 3c010a14
/model.1/act/Mul_output_0: 3e8b06c8
/model.2/cv1/conv/Conv_output_0: 3e9ef6ef
/model.2/cv1/act/Sigmoid_output_0: 3c010a14
/model.2/cv1/act/Mul_output_0: 3dbf8c9d
/model.21/cv3.1/cv3.1.1/cv3.1.1.1/act/Sigmoid_output_0: 3c010a14
/model.21/Expand_3_output_0: 3e9f4871
/model.21/Split_1_output_0: 3de816a6
/model.20/m.0/cv3/conv/Conv_output_0: 3d641113
/model.18/act/Sigmoid_output_0: 3c017a1e
/model.8/m.0/m.0.1/attn/Reshape_2_output_0: 3d7e3e07
/model.2/Split_output_0: 3dbf8c9d
/model.21/cv3.1/cv3.1.1/cv3.1.1.0/act/Sigmoid_output_0: 3c010a14
/model.21/cv3.1/cv3.1.1/cv3.1.1.0/conv/Conv_output_0: 3dc3b45d
/model.8/m.1/m.1.1/attn/pe/conv/Conv_output_0: 3d07bc8e
/model.2/Split_output_1: 3d418113
/model.2/m.0/cv1/conv/Conv_output_0: 3da5b434
/model.2/m.0/cv1/act/Sigmoid_output_0: 3c010a00
/model.2/m.0/cv1/act/Mul_output_0: 3d8e902a
/model.2/m.0/cv2/conv/Conv_output_0: 3daa49e9
/model.2/m.0/cv2/act/Sigmoid_output_0: 3c010a14
/model.2/m.0/cv2/act/Mul_output_0: 3dbd7be4
/model.2/m.0/Add_output_0: 3dcdaa87
/model.2/Concat_output_0: 3dc1e64b
/model.2/cv2/conv/Conv_output_0: 3e03ca59
/model.2/cv2/act/Sigmoid_output_0: 3c00d9b3
/model.2/cv2/act/Mul_output_0: 3d6aba29
/model.3/conv/Conv_output_0: 3d81ff9e
/model.3/act/Sigmoid_output_0: 3c0130c3
/model.3/act/Mul_output_0: 3d412112
/model.4/cv1/conv/Conv_output_0: 3d6c28f2
/model.4/cv1/act/Sigmoid_output_0: 3c00e947
/model.4/cv1/act/Mul_output_0: 3d3ef89c
/model.20/cv1/act/Mul_output_0: 3d029892
/model.21/cv3.1/cv3.1.0/cv3.1.0.1/act/Mul_output_0: 3d270e61
/model.21/cv2.1/cv2.1.2/Conv_output_0: 3db21898
/model.20/m.0/m/m.1/Add_output_0: 3d8c9325
/model.21/cv3.1/cv3.1.1/cv3.1.1.1/act/Mul_output_0: 3e154883
/model.8/m.0/m.0.1/attn/Reshape_output_0: 3d5c8c9f
/model.4/Split_output_0: 3d661e38
/model.21/cv2.1/cv2.1.1/act/Mul_output_0: 3d91264e
/model.21/Unsqueeze_10_output_0: 3e1d4449
/model.20/cv1/act/Sigmoid_output_0: 3c014ab0
/model.4/Split_output_1: 3cd0391c
/model.4/m.0/cv1/conv/Conv_output_0: 3d49a84e
/model.4/m.0/cv1/act/Sigmoid_output_0: 3c01cb67
/model.4/m.0/cv1/act/Mul_output_0: 3d1152a9
/model.4/m.0/cv2/conv/Conv_output_0: 3d825398
/model.4/m.0/cv2/act/Sigmoid_output_0: 3c00cf4d
/model.4/m.0/cv2/act/Mul_output_0: 3d40a7f3
/model.4/m.0/Add_output_0: 3d8377ce
/model.4/Concat_output_0: 3d3ef89c
/model.4/cv2/conv/Conv_output_0: 3d8d5773
/model.4/cv2/act/Sigmoid_output_0: 3c00f24a
/model.4/cv2/act/Mul_output_0: 3cc1ddfc
/model.5/conv/Conv_output_0: 3d822071
/model.5/act/Sigmoid_output_0: 3c085b81
/model.5/act/Mul_output_0: 3d00ee16
/model.6/cv1/conv/Conv_output_0: 3e1588d5
/model.6/cv1/act/Sigmoid_output_0: 3c010a14
/model.6/cv1/act/Mul_output_0: 3d96924e
/model.8/m.1/m.1.0/attn/Reshape_3_output_0: 3d5d1777
/model.8/m.1/m.1.0/attn/Mul_1_output_0: 3decc5a0
/model.6/m.0/m.0.0/attn/qkv/conv/Conv_output_0: 3d94684d
/model.8/m.0/m.0.1/attn/proj/conv/Conv_output_0: 3d0aa1c6
/model.21/Unsqueeze_12_output_0: 3f204a85
/model.8/m.0/m.0.1/mlp/mlp.0/act/Sigmoid_output_0: 3c00ae38
/model.20/m.0/cv1/act/Sigmoid_output_0: 3c02c5c6
/model.8/m.1/m.1.0/attn/MatMul_output_0: 3f276c50
/model.17/m.0/m/m.1/Add_output_0: 3deee312
/model.20/m.0/cv1/conv/Conv_output_0: 3d31d26f
/model.8/m.1/m.1.1/attn/qkv/conv/Conv_output_0: 3d32da30
/model.21/Split_1_output_1: 3edba272
/model.11/m.0/cv1/act/Mul_output_0: 3cb2599f
/model.8/m.0/m.0.0/Add_output_0: 3dc350a3
/model.18/act/Mul_output_0: 3d01ed68
/model.21/cv3.1/cv3.1.0/cv3.1.0.0/act/Mul_output_0: 3dbb02f6
/model.21/cv2.2/cv2.2.2/Conv_output_0: 3db30f30
/model.21/cv3.1/cv3.1.0/cv3.1.0.1/act/Sigmoid_output_0: 3c00ba60
/model.21/cv2.1/cv2.1.0/act/Sigmoid_output_0: 3c00c08c
/model.21/cv2.2/cv2.2.1/act/Mul_output_0: 3d926805
/model.21/cv3.1/cv3.1.0/cv3.1.0.1/conv/Conv_output_0: 3d651b7a
/model.21/cv3.1/cv3.1.0/cv3.1.0.0/conv/Conv_output_0: 3d9c1a47
/model.18/conv/Conv_output_0: 3d3d61f6
/model.17/cv2/act/Sigmoid_output_0: 3c00f12c
/model.17/cv2/conv/Conv_output_0: 3d858fa7
/model.17/cv2/act/Mul_output_0: 3d2614f9
/model.17/Concat_output_0: 3d29d3e8
/model.17/m.0/cv3/act/Mul_output_0: 3d0ff0e2
/model.17/m.0/cv3/act/Sigmoid_output_0: 3c053704
/model.21/Slice_output_0: 3dd2e6e6
/model.21/Reshape_7_output_0: 3f204a85
/model.20/m.0/cv2/act/Mul_output_0: 3c8f70cf
/model.8/m.1/m.1.0/attn/Split_output_2: 3d5d1777
/model.21/Slice_1_output_0: 3de68e36
/model.17/m.0/Concat_output_0: 3d97f89b
/model.21/Unsqueeze_4_output_0: 3f204a85
/model.8/m.0/m.0.1/Add_output_0: 3dcdc13c
/model.21/cv3.2/cv3.2.1/cv3.2.1.1/act/Sigmoid_output_0: 3c010a14
/model.8/m.0/m.0.1/attn/MatMul_output_0: 3f6d36e7
/model.17/m.0/m/m.1/cv1/act/Mul_output_0: 3cb2eeed
/model.8/m.0/m.0.0/Add_1_output_0: 3dd37580
(Unnamed Layer* 1189) [Constant]_output: 0
/model.21/Concat_22_output_0: 3f204a85
/model.8/m.1/m.1.0/attn/Softmax_output_0: 3a2eea1e
/model.6/m.0/m.0.0/attn/Reshape_output_0: 3d94684d
ONNXTRT_Broadcast_469_output: 3ab67d3d
/model.6/m.0/m.0.0/attn/Transpose_output_0: 3d94684d
/model.8/m.1/m.1.0/attn/Transpose_2_output_0: 3d31d712
/model.6/m.0/m.0.0/attn/Reshape_1_output_0: 3d94684d
/model.21/cv3.1/cv3.1.1/cv3.1.1.0/act/Mul_output_0: 3db846cb
/model.14/m.0/cv3/act/Mul_output_0: 3cc0ee5f
/model.21/Range_4_output_0: 3e193bf8
/model.21/dfl/Reshape_output_0: 3de816a6
/model.15/conv/Conv_output_0: 3d7940b2
/model.21/Range_1_output_0: 3f1f4871
/model.20/m.0/m/m.1/cv2/act/Mul_output_0: 3d445259
/model.21/cv3.2/cv3.2.1/cv3.2.1.1/conv/Conv_output_0: 3e2a4d70
/model.8/m.1/m.1.0/attn/qkv/conv/Conv_output_0: 3d52ba20
/model.8/m.1/m.1.0/attn/Split_output_1: 3d2446f5
/model.8/m.1/m.1.1/attn/Transpose_1_output_0: 3d32da30
ONNXTRT_ShapeShuffle_562_output: 0
/model.17/m.0/m/m.0/cv2/act/Sigmoid_output_0: 3c0111c9
/model.6/m.0/m.0.0/attn/Reshape_2_output_0: 3d94684d
/model.20/m.0/m/m.0/cv1/act/Sigmoid_output_0: 3c0a499e
/model.6/m.0/m.0.0/attn/Transpose_1_output_0: 3d94684d
/model.8/m.0/m.0.1/mlp/mlp.1/conv/Conv_output_0: 3d709759
/model.21/Add_2_output_0: 3d810a14
/model.8/m.0/m.0.0/mlp/mlp.0/act/Sigmoid_output_0: 3c00dbf2
/model.20/m.0/m/m.0/cv2/act/Mul_output_0: 3d01308f
/model.8/m.0/m.0.0/attn/Add_output_0: 3d843111
/model.21/Reshape_6_output_0: 3f204a85
/model.6/m.0/m.0.0/attn/Split_output_0: 3cb22b0d
/model.8/m.1/m.1.0/attn/Transpose_5_output_0: 3d5d1777
/model.21/Expand_2_output_0: 3e9f4871
/model.14/m.0/cv3/act/Sigmoid_output_0: 3c02ce82
/model.6/m.0/m.0.0/attn/Split_output_1: 3ccaf3fc
/model.21/Reshape_17_output_0: 3e1d4449
/model.21/Reshape_10_output_0: 3e9f4871
/model.8/m.0/m.0.1/attn/Transpose_4_output_0: 3d7e3e07
/model.6/m.0/m.0.0/attn/Split_output_2: 3d9de482
/model.6/m.0/m.0.0/attn/Transpose_2_output_0: 3cb22b0d
/model.6/m.0/m.0.0/attn/Transpose_5_output_0: 3d9de482
/model.6/m.0/m.0.0/attn/MatMul_output_0: 3ea587f8
/model.6/m.0/m.0.0/attn/Constant_15_output_0_output: 3ab67d3d
ONNXTRT_Broadcast_output: 3ab67d3d
/model.6/m.0/m.0.0/attn/Mul_3_output_0: 3d6a18aa
/model.6/m.0/m.0.0/attn/Softmax_output: 39e44712
/model.6/m.0/m.0.0/attn/Softmax_output_0: 39e44712
/model.21/Reshape_5_output_0: 3f204a85
/model.17/m.0/m/m.1/cv2/act/Sigmoid_output_0: 3c053a72
/model.6/m.0/m.0.0/attn/Transpose_3_output_0: 39e44712
/model.6/m.0/m.0.0/attn/MatMul_1_output_0: 3d5da194
/model.6/m.0/m.0.0/attn/Transpose_4_output_0: 3d5da194
/model.6/m.0/m.0.0/attn/Reshape_3_output_0: 3d5da194
/model.8/m.0/m.0.1/attn/Transpose_1_output_0: 3d5c8c9f
/model.11/m.0/m/m.1/cv2/act/Sigmoid_output_0: 3c087fde
ONNXTRT_Broadcast_567_output: 3d810a14
/model.21/Reshape_3_output_0: 3f204a85
ONNXTRT_Broadcast_559_output: 3b810a14
/model.21/cv3.1/cv3.1.2/Conv_output_0: 3ebbff34
/model.6/m.0/m.0.0/attn/Reshape_5_output_0: 3d5da194
/model.6/m.0/m.0.0/attn/Reshape_6_output_0: 3d9de482
/model.6/m.0/m.0.0/attn/Transpose_6_output_0: 3d5da194
/model.6/m.0/m.0.0/attn/Transpose_7_output_0: 3d9de482
/model.6/m.0/m.0.0/attn/pe/conv/Conv_output_0: 3d90114e
/model.6/m.0/m.0.0/attn/Add_output_0: 3d4cd1c6
/model.6/m.0/m.0.0/attn/proj/conv/Conv_output_0: 3d114909
/model.6/m.0/m.0.0/Add_output_0: 3e158487
/model.6/m.0/m.0.0/mlp/mlp.0/conv/Conv_output_0: 3d3d6fa6
/model.6/m.0/m.0.0/mlp/mlp.0/act/Sigmoid_output_0: 3bfd553a
/model.6/m.0/m.0.0/mlp/mlp.0/act/Mul_output_0: 3c41097e
/model.6/m.0/m.0.0/mlp/mlp.1/conv/Conv_output_0: 3d2468dd
/model.6/m.0/m.0.0/Add_1_output_0: 3de890da
ONNXTRT_ShapeShuffle_544_output: 3c010a14
/model.21/Constant_15_output_0_output: 3c010a14
/model.6/m.0/m.0.1/attn/qkv/conv/Conv_output_0: 3d5efdd0
/model.21/Constant_14_output_0_output: 0
/model.8/m.1/m.1.0/attn/Reshape_2_output_0: 3d496ded
/model.8/m.0/m.0.1/attn/qkv/conv/Conv_output_0: 3d5c8c9f
/model.21/Reshape_1_output_0: 3eab11f1
/model.21/cv2.1/cv2.1.1/conv/Conv_output_0: 3e02051d
/model.8/m.0/m.0.0/mlp/mlp.0/act/Mul_output_0: 3ce5c3f1
ONNXTRT_Broadcast_557_output: 3b810a14
/model.20/cv2/act/Mul_output_0: 3d450af4
/model.8/m.0/m.0.0/mlp/mlp.0/conv/Conv_output_0: 3d5e6d72
/model.17/m.0/m/m.1/cv1/act/Sigmoid_output_0: 3c036bd8
(Unnamed Layer* 1314) [Constant]_output: 0
/model.21/Reshape_16_output_0: 3e1d4449
/model.20/m.0/cv3/act/Sigmoid_output_0: 3c00eac9
/model.21/Reshape_9_output_0: 3e9f4871
ONNXTRT_ShapeShuffle_554_output: 3c010a14
/model.21/Reshape_4_output_0: 3f204a85
/model.21/Concat_6_output_0: 3ebc03a4
/model.9/Resize_output_0: 3c8139d5
/model.21/Reshape_13_output_0: 3e1d4449
/model.21/cv2.2/cv2.2.0/act/Mul_output_0: 3d3f80b3
/model.21/Range_output_0: 3f1f4871
/model.11/m.0/m/m.1/cv1/act/Mul_output_0: 3c921211
/model.21/Reshape_12_output_0: 3e9f4871
/model.21/Expand_5_output_0: 3e1d4449
/model.8/m.0/m.0.1/attn/Mul_1_output_0: 3e27bc67
/model.21/Unsqueeze_7_output_0: 3e9f4871
/model.21/cv3.2/cv3.2.0/cv3.2.0.0/act/Sigmoid_output_0: 3c0be633
/model.20/m.0/cv2/act/Sigmoid_output_0: 3c07626a
/model.8/m.0/m.0.0/attn/Transpose_4_output_0: 3d15bb83
/model.20/Concat_output_0: 3d004d2c
/model.21/cv3.2/cv3.2.0/cv3.2.0.1/conv/Conv_output_0: 3d4b060b
/model.21/Transpose_1_output_0: 3e810a14
/model.21/cv2.1/cv2.1.0/conv/Conv_output_0: 3d9684cf
/model.21/cv3.0/cv3.0.0/cv3.0.0.0/act/Mul_output_0: 3d9058d2
/model.20/m.0/m/m.0/Add_output_0: 3d3f6873
/model.17/m.0/m/m.1/cv1/conv/Conv_output_0: 3d950350
/model.8/m.0/m.0.1/attn/Softmax_output_0: 3a597818
/model.6/m.0/m.0.1/attn/Reshape_output_0: 3d5efdd0
ONNXTRT_Broadcast_722_output: 3b810a14
/model.6/m.0/m.0.1/attn/Transpose_output_0: 3d5efdd0
/model.19/Concat_output_0: 3cb306aa
/model.6/m.0/m.0.1/attn/Reshape_1_output_0: 3d5efdd0
/model.21/cv2.2/cv2.2.1/conv/Conv_output_0: 3dd56bd6
/model.15/act/Mul_output_0: 3cb14815
/model.17/m.0/m/m.0/Add_output_0: 3da4d7ac
ONNXTRT_ShapeShuffle_636_output: 3c010a14
/model.8/m.0/m.0.0/attn/Transpose_6_output_0: 3d15bb83
/model.21/cv3.1/cv3.1.1/cv3.1.1.1/conv/Conv_output_0: 3e7beb7b
/model.17/m.0/m/m.0/cv1/act/Sigmoid_output_0: 3c0251ea
/model.17/m.0/m/m.1/cv2/conv/Conv_output_0: 3dbf8efd
/model.8/m.1/m.1.0/attn/Reshape_output_0: 3d52ba20
/model.21/cv3.0/cv3.0.1/cv3.0.1.1/act/Sigmoid_output_0: 3c010a14
/model.21/cv3.2/cv3.2.1/cv3.2.1.0/act/Sigmoid_output_0: 3c010a14
/model.6/m.0/m.0.1/attn/Reshape_2_output_0: 3d5efdd0
/model.21/Concat_1_output_0: 3eab11f1
/model.6/m.0/m.0.1/attn/Transpose_1_output_0: 3d5efdd0
/model.17/m.0/m/m.0/cv2/act/Mul_output_0: 3d24ba89
ONNXTRT_ShapeShuffle_643_output: 0
ONNXTRT_ShapeShuffle_708_output: 3c010a14
/model.20/m.0/m/m.0/cv2/conv/Conv_output_0: 3d66e66e
/model.20/m.0/cv1/act/Mul_output_0: 3cd3190a
/model.21/cv3.2/cv3.2.0/cv3.2.0.1/act/Mul_output_0: 3d251ef6
/model.6/m.0/m.0.1/attn/Split_output_0: 3d472689
/model.21/dfl/Softmax_output: 3bd00052
/model.8/m.0/m.0.1/attn/Transpose_6_output_0: 3d7e3e07
/model.8/m.1/m.1.0/Add_output_0: 3dd994cb
/model.6/m.0/m.0.1/attn/Split_output_1: 3d35d95c
/model.21/Concat_output_0: 3ebbe770
/model.21/cv3.0/cv3.0.2/Conv_output_0: 3ed5af61
/model.17/m.0/m/m.0/cv1/act/Mul_output_0: 3cd4ffa4
/model.6/m.0/m.0.1/attn/Split_output_2: 3d64be90
/model.6/m.0/m.0.1/attn/Transpose_2_output_0: 3d472689
/model.6/m.0/m.0.1/attn/Transpose_5_output_0: 3d64be90
/model.6/m.0/m.0.1/attn/MatMul_output_0: 3f5ba0a0
ONNXTRT_Broadcast_148_output: 3ab67d3d
/model.6/m.0/m.0.1/attn/Mul_3_output_0: 3e1b4cd0
/model.6/m.0/m.0.1/attn/Softmax_output: 3a3bbe9e
/model.6/m.0/m.0.1/attn/Softmax_output_0: 3a3bbe9e
/model.20/m.0/m/m.0/cv1/act/Mul_output_0: 3cd2abc9
/model.8/m.1/m.1.0/attn/Transpose_output_0: 3d52ba20
/model.6/m.0/m.0.1/attn/Transpose_3_output_0: 3a3bbe9e
/model.6/m.0/m.0.1/attn/MatMul_1_output_0: 3d0077ff
/model.6/m.0/m.0.1/attn/Transpose_4_output_0: 3d0077ff
/model.6/m.0/m.0.1/attn/Reshape_3_output_0: 3d0077ff
/model.21/Mul_5_output_0: 40a06fe5
/model.17/m.0/m/m.0/cv1/conv/Conv_output_0: 3dab5108
/model.21/Reshape_output_0: 3ebbe770
/model.21/cv3.0/cv3.0.1/cv3.0.1.1/conv/Conv_output_0: 3e40a856
/model.8/m.1/m.1.0/attn/Transpose_4_output_0: 3d496ded
/model.8/m.0/m.0.1/attn/Transpose_5_output_0: 3d92094f
/model.6/m.0/m.0.1/attn/Reshape_5_output_0: 3d0077ff
/model.6/m.0/m.0.1/attn/Reshape_6_output_0: 3d64be90
/model.6/m.0/m.0.1/attn/Transpose_6_output_0: 3d0077ff
/model.6/m.0/m.0.1/attn/Transpose_7_output_0: 3d64be90
/model.6/m.0/m.0.1/attn/pe/conv/Conv_output_0: 3d5e77ab
/model.6/m.0/m.0.1/attn/Add_output_0: 3d71e401
/model.6/m.0/m.0.1/attn/proj/conv/Conv_output_0: 3cf7a48b
/model.6/m.0/m.0.1/Add_output_0: 3dfae43b
/model.6/m.0/m.0.1/mlp/mlp.0/conv/Conv_output_0: 3d67a2a1
/model.6/m.0/m.0.1/mlp/mlp.0/act/Sigmoid_output_0: 3c006a88
/model.6/m.0/m.0.1/mlp/mlp.0/act/Mul_output_0: 3becd0bb
/model.6/m.0/m.0.1/mlp/mlp.1/conv/Conv_output_0: 3d33d669
/model.6/m.0/m.0.1/Add_1_output_0: 3def491d
/model.21/Expand_4_output_0: 3e1d4449
/model.21/Concat_10_output_0: 3f204a85
/model.6/m.1/m.1.0/attn/qkv/conv/Conv_output_0: 3d65da71
/model.8/m.1/m.1.1/attn/Transpose_6_output_0: 3d007120
/model.21/cv3.0/cv3.0.0/cv3.0.0.1/conv/Conv_output_0: 3d824f98
/model.21/cv2.0/cv2.0.1/conv/Conv_output_0: 3defed68
/model.17/cv1/act/Sigmoid_output_0: 3c08809c
/model.21/cv3.0/cv3.0.0/cv3.0.0.1/act/Sigmoid_output_0: 3c00eabf
/model.21/ConstantOfShape_2_output_0: 0
/model.14/m.0/m/m.1/cv2/conv/Conv_output_0: 3e01be95
/model.21/cv3.1/cv3.1.0/cv3.1.0.0/act/Sigmoid_output_0: 3c010a13
/model.21/dfl/Transpose_output_0: 3de816a6
/model.8/m.1/m.1.0/Add_1_output_0: 3df1e8a5
/model.21/cv3.2/cv3.2.0/cv3.2.0.0/conv/Conv_output_0: 3d89ae7e
/model.21/dfl/Softmax_output_0: 3bd00052
/model.17/m.0/cv1/act/Mul_output_0: 3cb19a0a
/model.21/cv3.0/cv3.0.1/cv3.0.1.0/act/Mul_output_0: 3e117ed2
/model.8/m.0/m.0.1/attn/Split_output_1: 3d541d57
/model.21/dfl/conv/Conv_output_0: 3de6be7e
ONNXTRT_Broadcast_640_output: 3b810a14
/model.20/m.0/cv3/act/Mul_output_0: 3d004d2c
/model.17/m.0/cv1/conv/Conv_output_0: 3cffa172
/model.20/cv2/act/Sigmoid_output_0: 3c0110cd
/model.17/m.0/cv2/conv/Conv_output_0: 3d6c18df
/model.21/cv3.0/cv3.0.1/cv3.0.1.0/conv/Conv_output_0: 3e0acd71
/model.8/m.1/m.1.0/mlp/mlp.1/conv/Conv_output_0: 3cf978d9
ONNXTRT_ShapeShuffle_718_output: 3c010a14
/model.21/cv3.0/cv3.0.1/cv3.0.1.0/act/Sigmoid_output_0: 3c010a14
/model.21/cv2.0/cv2.0.2/Conv_output_0: 3ddd664d
/model.17/cv1/act/Mul_output_0: 3d2a8b8b
/model.21/cv3.0/cv3.0.0/cv3.0.0.1/act/Mul_output_0: 3d25297e
/model.17/m.0/cv1/act/Sigmoid_output_0: 3c0098a1
/model.21/cv2.0/cv2.0.1/act/Mul_output_0: 3d6814f6
/model.20/m.0/m/m.0/cv1/conv/Conv_output_0: 3d69afc8
/model.21/cv2.0/cv2.0.1/act/Sigmoid_output_0: 3c075e64
/model.14/m.0/m/m.1/Add_output_0: 3df55041
/model.21/cv2.1/cv2.1.1/act/Sigmoid_output_0: 3c02140c
/model.21/Constant_16_output_0_output: 3b810a14
/model.21/Reshape_11_output_0: 3e9f4871
/model.21/ConstantOfShape_1_output_0: 0
/model.6/m.1/m.1.0/attn/Reshape_output_0: 3d65da71
/model.16/Concat_output_0: 3cb14815
/model.6/m.1/m.1.0/attn/Transpose_output_0: 3d65da71
/model.21/cv2.0/cv2.0.0/conv/Conv_output_0: 3d9c1b09
/model.6/m.1/m.1.0/attn/Reshape_1_output_0: 3d65da71
/model.21/cv2.0/cv2.0.0/act/Mul_output_0: 3d272e1a
/model.17/m.0/m/m.0/cv2/conv/Conv_output_0: 3d9c5be1
/model.21/cv3.0/cv3.0.0/cv3.0.0.0/act/Sigmoid_output_0: 3c011219
/model.8/m.0/m.0.1/Add_1_output_0: 3dd97223
/model.11/m.0/cv2/act/Sigmoid_output_0: 3c00eccb
/model.21/cv2.0/cv2.0.0/act/Sigmoid_output_0: 3c00d986
/model.8/m.0/m.0.1/attn/Transpose_3_output_0: 3a597818
/model.14/m.0/cv3/conv/Conv_output_0: 3d69902a
/model.21/Reshape_2_output_0: 3eab018d
/model.14/m.0/Concat_output_0: 3d91738c
/model.8/m.0/m.0.1/attn/Transpose_2_output_0: 3d42a8d8
/model.6/m.1/m.1.0/attn/Reshape_2_output_0: 3d65da71
/model.21/cv3.2/cv3.2.2/Conv_output_0: 3eb0aa74
/model.6/m.1/m.1.0/attn/Transpose_1_output_0: 3d65da71
/model.15/act/Sigmoid_output_0: 3c09533c
/model.20/m.0/m/m.1/cv2/conv/Conv_output_0: 3d82c1ee
/model.8/m.0/m.0.1/attn/MatMul_1_output_0: 3d7e3e07
/model.21/cv3.0/cv3.0.0/cv3.0.0.0/conv/Conv_output_0: 3daefb7b
/model.21/Concat_24_output_0: 3f2064c2
/model.14/cv2/act/Sigmoid_output_0: 3c0105b4
/model.6/m.1/m.1.0/attn/Split_output_0: 3d13637e
/model.14/cv2/conv/Conv_output_0: 3d56a9b1
/model.21/cv3.2/cv3.2.1/cv3.2.1.0/act/Mul_output_0: 3dbe5fff
/model.21/Reshape_8_output_0: 3e9f4871
/model.6/m.1/m.1.0/attn/Split_output_1: 3d085257
ONNXTRT_Broadcast_836_output: 3c810a14
/model.8/m.0/m.0.1/attn/Add_output_0: 3d75e315
/model.14/Concat_output_0: 3d00aa44
/model.6/m.1/m.1.0/attn/Split_output_2: 3d721288
/model.6/m.1/m.1.0/attn/Transpose_2_output_0: 3d13637e
/model.6/m.1/m.1.0/attn/Transpose_5_output_0: 3d721288
/model.6/m.1/m.1.0/attn/MatMul_output_0: 3f024bf4
ONNXTRT_Broadcast_213_output: 3ab67d3d
/model.6/m.1/m.1.0/attn/Mul_3_output_0: 3db84470
/model.6/m.1/m.1.0/attn/Softmax_output: 3a7b9d96
/model.6/m.1/m.1.0/attn/Softmax_output_0: 3a7b9d96
/model.20/m.0/m/m.1/cv1/act/Sigmoid_output_0: 3c082c6f
/model.21/Sigmoid_output_0: 3b4f6e6f
/model.6/m.1/m.1.0/attn/Transpose_3_output_0: 3a7b9d96
/model.6/m.1/m.1.0/attn/MatMul_1_output_0: 3d29fa87
/model.6/m.1/m.1.0/attn/Transpose_4_output_0: 3d29fa87
/model.6/m.1/m.1.0/attn/Reshape_3_output_0: 3d29fa87
/model.14/m.0/m/m.1/cv2/act/Mul_output_0: 3d94bae0
/model.8/m.0/m.0.1/attn/Softmax_output: 3a597818
/model.8/m.0/m.0.1/mlp/mlp.0/act/Mul_output_0: 3d111952
/model.21/Add_10_output_0: 3f21d04f
/model.20/cv1/conv/Conv_output_0: 3d822afb
/model.14/m.0/m/m.1/cv1/act/Sigmoid_output_0: 3bff23e1
/model.6/m.1/m.1.0/attn/Reshape_5_output_0: 3d29fa87
/model.6/m.1/m.1.0/attn/Reshape_6_output_0: 3d721288
/model.6/m.1/m.1.0/attn/Transpose_6_output_0: 3d29fa87
/model.6/m.1/m.1.0/attn/Transpose_7_output_0: 3d721288
/model.6/m.1/m.1.0/attn/pe/conv/Conv_output_0: 3da3145d
/model.6/m.1/m.1.0/attn/Add_output_0: 3d570ef7
/model.6/m.1/m.1.0/attn/proj/conv/Conv_output_0: 3d194324
/model.6/m.1/m.1.0/Add_output_0: 3debba88
/model.6/m.1/m.1.0/mlp/mlp.0/conv/Conv_output_0: 3d8a006e
/model.6/m.1/m.1.0/mlp/mlp.0/act/Sigmoid_output_0: 3c03eb87
/model.6/m.1/m.1.0/mlp/mlp.0/act/Mul_output_0: 3c155798
/model.6/m.1/m.1.0/mlp/mlp.1/conv/Conv_output_0: 3d46578a
/model.6/m.1/m.1.0/Add_1_output_0: 3e003e1d
/model.11/m.0/cv3/act/Mul_output_0: 3cc13eb5
/model.11/m.0/cv3/act/Sigmoid_output_0: 3c0ffb52
/model.6/m.1/m.1.1/attn/qkv/conv/Conv_output_0: 3d88fa9e
/model.21/Sub_1_output_0: 3e52c986
/model.11/m.0/Concat_output_0: 3d3f99d6
/model.8/m.0/m.0.0/attn/proj/conv/Conv_output_0: 3d609441
/model.21/Range_3_output_0: 3e9d4449
/model.12/Resize_output_0: 3cc164c5
/model.11/m.0/m/m.1/Add_output_0: 3db8aad7
/model.8/m.1/m.1.0/attn/Reshape_1_output_0: 3d52ba20
/model.14/m.0/cv1/act/Mul_output_0: 3cc04ed8
/model.8/m.0/m.0.0/attn/Transpose_3_output_0: 39f3167c
/model.14/m.0/m/m.0/cv2/act/Sigmoid_output_0: 3c00ebe8
/model.14/m.0/m/m.0/cv2/act/Mul_output_0: 3d2888a2
/model.20/m.0/m/m.1/cv1/act/Mul_output_0: 3ce82455
/model.14/m.0/m/m.1/cv1/conv/Conv_output_0: 3d71795e
/model.14/m.0/m/m.0/cv2/conv/Conv_output_0: 3d886eae
/model.14/m.0/m/m.0/cv1/act/Mul_output_0: 3cc03b1f
/model.14/m.0/m/m.0/Add_output_0: 3da2f97c
/model.14/m.0/m/m.0/cv1/act/Sigmoid_output_0: 3c00c49f
/model.14/m.0/m/m.0/cv1/conv/Conv_output_0: 3d3df19d
ONNXTRT_Broadcast_638_output: 3b810a14
/model.21/dfl/Reshape_1_output_0: 3de6be7e
/model.14/m.0/cv2/act/Sigmoid_output_0: 3c0312e5
/model.14/m.0/cv1/act/Sigmoid_output_0: 3c05d23d
/model.20/m.0/m/m.1/cv1/conv/Conv_output_0: 3d3c6bc5
/model.14/m.0/cv2/conv/Conv_output_0: 3d8f5aeb
output0: 40a06fe5
/model.14/m.0/cv1/conv/Conv_output_0: 3d06e424
/model.14/cv1/act/Mul_output_0: 3d01c290
/model.14/cv1/act/Sigmoid_output_0: 3c00636c
/model.8/m.0/m.0.0/attn/pe/conv/Conv_output_0: 3d82b920
/model.13/Concat_output_0: 3cc19a82
/model.11/cv2/act/Mul_output_0: 3cc164c5
/model.8/m.0/m.0.1/attn/Split_output_2: 3d92094f
/model.17/m.0/cv3/conv/Conv_output_0: 3da823e1
/model.8/m.1/m.1.1/mlp/mlp.0/conv/Conv_output_0: 3d68827b
/model.11/cv2/act/Sigmoid_output_0: 3c007401
/model.8/m.1/m.1.0/attn/Transpose_1_output_0: 3d52ba20
/model.11/m.0/cv3/conv/Conv_output_0: 3d64a304
/model.6/m.1/m.1.1/attn/Reshape_output_0: 3d88fa9e
/model.21/Expand_output_0: 3f204a85
/model.6/m.1/m.1.1/attn/Transpose_output_0: 3d88fa9e
/model.11/m.0/m/m.1/cv2/act/Mul_output_0: 3d412799
/model.6/m.1/m.1.1/attn/Reshape_1_output_0: 3d88fa9e
/model.11/m.0/m/m.1/cv2/conv/Conv_output_0: 3da82e8f
/model.14/cv2/act/Mul_output_0: 3cd15c9a
/model.11/m.0/m/m.1/cv1/conv/Conv_output_0: 3d6d7db0
/model.11/m.0/m/m.0/Add_output_0: 3d7d2425
/model.20/m.0/m/m.0/cv2/act/Sigmoid_output_0: 3c04d23e
/model.11/m.0/m/m.0/cv2/act/Mul_output_0: 3d005877
/model.8/cv2/conv/Conv_output_0: 3d8f3ceb
/model.8/m.1/m.1.1/Add_1_output_0: 3e0434ea
/model.11/m.0/m/m.0/cv2/conv/Conv_output_0: 3d88b411
/model.8/m.1/m.1.1/mlp/mlp.0/act/Mul_output_0: 3ca4b2ac
/model.8/Concat_output_0: 3d93976e
/model.6/m.1/m.1.1/attn/Reshape_2_output_0: 3d88fa9e
/model.8/m.1/m.1.1/mlp/mlp.0/act/Sigmoid_output_0: 3bfcd41c
/model.6/m.1/m.1.1/attn/Transpose_1_output_0: 3d88fa9e
/model.11/m.0/m/m.0/cv1/act/Sigmoid_output_0: 3c00ddea
/model.11/m.0/cv2/act/Mul_output_0: 3cd313ac
/model.11/m.0/m/m.0/cv1/act/Mul_output_0: 3c991b66
/model.11/m.0/cv1/act/Sigmoid_output_0: 3c038c68
/model.8/m.1/m.1.0/attn/Transpose_3_output_0: 3a2eea1e
/model.8/m.1/m.1.0/attn/proj/conv/Conv_output_0: 3d2bb787
/model.6/m.1/m.1.1/attn/Split_output_0: 3d6b3c06
/model.11/m.0/cv2/conv/Conv_output_0: 3d6926de
/model.11/m.0/cv1/conv/Conv_output_0: 3d4f5266
/model.11/cv1/act/Mul_output_0: 3d26e875
/model.6/m.1/m.1.1/attn/Split_output_1: 3d9b83b3
/model.11/cv1/act/Sigmoid_output_0: 3c009903
/model.11/cv1/conv/Conv_output_0: 3d8f4683
/model.10/Concat_output_0: 3c9a1e8d
/model.6/m.1/m.1.1/attn/Split_output_2: 3d88e44e
/model.6/m.1/m.1.1/attn/Transpose_2_output_0: 3d6b3c06
/model.6/m.1/m.1.1/attn/Transpose_5_output_0: 3d88e44e
/model.6/m.1/m.1.1/attn/MatMul_output_0: 3f436d95
ONNXTRT_Broadcast_278_output: 3ab67d3d
/model.6/m.1/m.1.1/attn/Mul_3_output_0: 3e0a3042
/model.6/m.1/m.1.1/attn/Softmax_output: 3a8a1bbe
/model.6/m.1/m.1.1/attn/Softmax_output_0: 3a8a1bbe
/model.8/cv2/act/Mul_output_0: 3c8139d5
/model.17/cv1/conv/Conv_output_0: 3d9c1c51
/model.6/m.1/m.1.1/attn/Transpose_3_output_0: 3a8a1bbe
/model.6/m.1/m.1.1/attn/MatMul_1_output_0: 3d89fe1c
/model.6/m.1/m.1.1/attn/Transpose_4_output_0: 3d89fe1c
/model.6/m.1/m.1.1/attn/Reshape_3_output_0: 3d89fe1c
/model.21/cv2.2/cv2.2.1/act/Sigmoid_output_0: 3c010a12
/model.14/m.0/m/m.1/cv1/act/Mul_output_0: 3d00468a
/model.8/m.1/m.1.1/Add_output_0: 3de87fc4
/model.8/m.1/m.1.1/attn/proj/conv/Conv_output_0: 3d194042
/model.8/m.1/m.1.1/attn/Add_output_0: 3d0eca4e
/model.8/m.1/m.1.1/attn/Transpose_4_output_0: 3d007120
/model.6/m.1/m.1.1/attn/Reshape_5_output_0: 3d89fe1c
/model.6/m.1/m.1.1/attn/Reshape_6_output_0: 3d88e44e
/model.6/m.1/m.1.1/attn/Transpose_6_output_0: 3d89fe1c
/model.6/m.1/m.1.1/attn/Transpose_7_output_0: 3d88e44e
/model.6/m.1/m.1.1/attn/pe/conv/Conv_output_0: 3d901647
/model.6/m.1/m.1.1/attn/Add_output_0: 3da1756c
/model.6/m.1/m.1.1/attn/proj/conv/Conv_output_0: 3d22b03f
/model.6/m.1/m.1.1/Add_output_0: 3e11e049
/model.6/m.1/m.1.1/mlp/mlp.0/conv/Conv_output_0: 3d4ec6f4
/model.6/m.1/m.1.1/mlp/mlp.0/act/Sigmoid_output_0: 3c006bf0
/model.6/m.1/m.1.1/mlp/mlp.0/act/Mul_output_0: 3bc0b680
/model.6/m.1/m.1.1/mlp/mlp.1/conv/Conv_output_0: 3d9b93c8
/model.6/m.1/m.1.1/Add_1_output_0: 3e059a97
/model.6/Concat_output_0: 3dc6228b
/model.6/cv2/conv/Conv_output_0: 3d83e7be
/model.6/cv2/act/Sigmoid_output_0: 3c00f4d5
/model.6/cv2/act/Mul_output_0: 3c9a8fc4
/model.7/conv/Conv_output_0: 3d6c086f
/model.7/act/Sigmoid_output_0: 3c00f5af
/model.7/act/Mul_output_0: 3cb1d490
/model.8/cv1/conv/Conv_output_0: 3e15dacc
/model.8/cv1/act/Sigmoid_output_0: 3c03d7a5
/model.8/cv1/act/Mul_output_0: 3d3f8802
/model.8/m.1/m.1.0/attn/pe/conv/Conv_output_0: 3d0f9a7a
/model.8/m.0/m.0.1/attn/pe/conv/Conv_output_0: 3d53f34c
/model.8/m.0/m.0.0/attn/qkv/conv/Conv_output_0: 3d8255d3
/model.8/m.1/m.1.1/attn/Split_output_0: 3d147c22
/model.11/m.0/m/m.1/cv1/act/Sigmoid_output_0: 3c0ac515
ONNXTRT_Broadcast_730_output: 3e810a14
ONNXTRT_Broadcast_406_output: 3ab67d3d
/model.21/ConstantOfShape_output_0: 0
ONNXTRT_ShapeShuffle_626_output: 3c010a14
/model.8/m.1/m.1.1/attn/MatMul_1_output_0: 3d007120
/model.8/m.1/m.1.1/attn/Reshape_3_output_0: 3d6a4e3f
/model.8/m.1/m.1.1/attn/Transpose_3_output_0: 3a15bfbd
ONNXTRT_Broadcast_720_output: 3b810a14
/model.21/Range_2_output_0: 3e9d4449
/model.20/Split_output_1: 3d029892
/model.8/m.0/m.0.1/attn/Reshape_3_output_0: 3d92094f
/model.8/m.1/m.1.1/attn/Softmax_output_0: 3a15bfbd
/model.8/m.1/m.1.1/attn/Softmax_output: 3a15bfbd
/model.21/cv3.2/cv3.2.1/cv3.2.1.1/act/Mul_output_0: 3e140385
/model.21/cv3.2/cv3.2.1/cv3.2.1.0/conv/Conv_output_0: 3dda7d75
/model.8/m.1/m.1.1/attn/Transpose_7_output_0: 3d6a4e3f
/model.21/Concat_23_output_0: 3e810a14
/model.8/m.1/m.1.1/attn/Transpose_5_output_0: 3d6a4e3f
/model.8/m.1/m.1.1/attn/MatMul_output_0: 3f128a78
/model.8/m.0/m.0.1/attn/Transpose_7_output_0: 3d92094f
/model.17/m.0/cv2/act/Sigmoid_output_0: 3c00faec
/model.8/m.1/m.1.1/attn/Transpose_2_output_0: 3d147c22
ONNXTRT_Broadcast_532_output: 3ab67d3d
/model.21/Unsqueeze_3_output_0: 3f204a85
/model.8/m.1/m.1.1/attn/Split_output_2: 3d6a4e3f
/model.21/Range_5_output_0: 3e193bf8
/model.8/m.1/m.1.1/attn/Mul_1_output_0: 3dcf3d78
(Unnamed Layer* 1049) [Constant]_output: 0
/model.8/m.1/m.1.1/attn/Split_output_1: 3d1aa303
/model.21/cv2.2/cv2.2.0/conv/Conv_output_0: 3d853c0c
/model.21/cv2.1/cv2.1.0/act/Mul_output_0: 3d252541
/model.21/cv3.2/cv3.2.0/cv3.2.0.0/act/Mul_output_0: 3d911550
ONNXTRT_ShapeShuffle_725_output: 0
/model.11/m.0/m/m.0/cv1/conv/Conv_output_0: 3d669e02
ONNXTRT_Broadcast_648_output: 3e010a14
/model.21/Concat_2_output_0: 3eab018d
/model.8/m.0/m.0.0/attn/Reshape_output_0: 3d8255d3
/model.21/Add_8_output_0: 3e810a14
/model.21/Div_1_output_0: 3f2064c2
/model.8/m.0/m.0.0/attn/Transpose_output_0: 3d8255d3
/model.8/m.0/m.0.0/attn/Reshape_1_output_0: 3d8255d3
/model.8/m.0/m.0.0/attn/Transpose_1_output_0: 3d8255d3
/model.8/m.1/m.1.0/mlp/mlp.0/act/Sigmoid_output_0: 3bfba7b4
/model.8/m.1/m.1.0/attn/Transpose_6_output_0: 3d496ded
/model.21/Reshape_15_output_0: 3e1d4449
/model.14/m.0/cv2/act/Mul_output_0: 3d106e98
/model.21/Reshape_14_output_0: 3e1d4449
/model.8/m.1/m.1.1/attn/Reshape_1_output_0: 3d32da30
/model.8/m.0/m.0.0/attn/Split_output_0: 3cf3f29c
/model.21/Add_11_output_0: 3fa064c2
/model.8/m.1/m.1.1/attn/Transpose_output_0: 3d32da30
/model.8/m.1/m.1.0/attn/Softmax_output: 3a2eea1e
/model.8/m.0/m.0.0/attn/Split_output_1: 3d2a17c3
/model.8/m.1/m.1.1/attn/Reshape_output_0: 3d32da30
/model.8/m.1/m.1.0/attn/Add_output_0: 3d446efd
/model.8/m.0/m.0.1/mlp/mlp.0/conv/Conv_output_0: 3d60ccfe
/model.8/m.0/m.0.0/attn/Split_output_2: 3d7f6d77
/model.8/m.0/m.0.0/attn/Transpose_2_output_0: 3cf3f29c
/model.8/m.0/m.0.0/attn/Transpose_5_output_0: 3d7f6d77
/model.8/m.0/m.0.0/attn/MatMul_output_0: 3f987dce
/model.8/m.0/m.0.0/attn/Reshape_3_output_0: 3d7f6d77
ONNXTRT_Broadcast_343_output: 3ab67d3d
/model.8/m.0/m.0.0/attn/Mul_1_output_0: 3e57a7ca
/model.8/m.0/m.0.0/attn/Transpose_7_output_0: 3d7f6d77
/model.8/m.0/m.0.0/attn/Softmax_output: 39f3167c
/model.8/m.0/m.0.0/attn/Softmax_output_0: 39f3167c
/model.8/m.0/m.0.1/attn/Reshape_1_output_0: 3d5c8c9f
