TRT-101300-EntropyCalibration2
images: 3b66eddc
/model.0/conv/Conv_output_0: 3ec8e20f
/model.23/Constant_7_output_0_output: 3e810a14
/model.23/Split_output_0: 3d810a14
/model.23/Split_output_1: 3e010a14
/model.23/Split_output_2: 3e810a14
/model.22/m.0/cv1/cv1.0/act/Sigmoid_output_0: 3c020d63
/model.23/one2one_cv2.2/one2one_cv2.2.1/act/Sigmoid_output_0: 3c053a73
/model.23/one2one_cv3.1/one2one_cv3.1.1/one2one_cv3.1.1.0/act/Mul_output_0: 3d40a616
/model.23/Concat_23_output_0: 3e810a14
/model.22/cv1/conv/Conv_output_0: 3d9fdd6e
/model.23/one2one_cv2.2/one2one_cv2.2.0/conv/Conv_output_0: 3dacee08
/model.23/Reshape_10_output_0: 3e9f4871
/model.23/Unsqueeze_15_output_0: 39cb0df7
/model.23/TopK_output_0: 39cb0df7
/model.0/act/Sigmoid_output_0: 3c010a14
/model.23/Squeeze_output_0: 3d810a14
/model.23/Squeeze_1_output_0: 3e010a14
/model.23/Squeeze_2_output_0: 3e810a14
/model.23/Cast_9_output_0: 3da14c99
/model.22/m.0/cv1/cv1.1/conv/Conv_output_0: 3d77627e
/model.0/act/Mul_output_0: 3e947eb7
/model.23/one2one_cv2.1/one2one_cv2.1.1/act/Mul_output_0: 3d676953
/model.1/conv/Conv_output_0: 3ea0553f
/model.1/act/Sigmoid_output_0: 3c010a14
/model.1/act/Mul_output_0: 3e827f4e
/model.2/cv1/conv/Conv_output_0: 3eac326e
/model.2/cv1/act/Sigmoid_output_0: 3c010a14
/model.2/cv1/act/Mul_output_0: 3dc2458d
/model.23/one2one_cv2.2/one2one_cv2.2.2/Conv_output_0: 3e33b7db
/model.23/Add_10_output_0: 3f21af6e
/model.23/one2one_cv3.2/one2one_cv3.2.0/one2one_cv3.2.0.0/act/Mul_output_0: 3d8ff39f
/model.23/Reshape_1_output_0: 3ecd68a8
/model.23/Flatten_1_output_0: 409f6fcd
/model.22/m.0/cv1/cv1.1/act/Sigmoid_output_0: 3c0209ae
/model.2/Split_output_0: 3dbd7b01
/model.23/Concat_1_output_0: 3ecd68a8
/model.22/Split_output_0: 3d23efc7
/model.22/m.0/cv1/cv1.2/conv/Conv_output_0: 3dabd7b9
/model.2/Split_output_1: 3d41d21c
/model.2/m.0/cv1/conv/Conv_output_0: 3d8c341a
/model.2/m.0/cv1/act/Sigmoid_output_0: 3c0109fa
/model.2/m.0/cv1/act/Mul_output_0: 3d662150
/model.2/m.0/cv2/conv/Conv_output_0: 3ddfdffe
/model.2/m.0/cv2/act/Sigmoid_output_0: 3c010a14
/model.2/m.0/cv2/act/Mul_output_0: 3d93d6d0
/model.2/m.0/Add_output_0: 3dc17664
/model.2/Concat_output_0: 3dc2458d
/model.2/cv2/conv/Conv_output_0: 3db75c45
/model.2/cv2/act/Sigmoid_output_0: 3c00992d
/model.2/cv2/act/Mul_output_0: 3d24e3fe
/model.3/conv/Conv_output_0: 3d563b70
/model.3/act/Sigmoid_output_0: 3c00e103
/model.3/act/Mul_output_0: 3d00c081
/model.4/cv1/conv/Conv_output_0: 3d43576b
/model.4/cv1/act/Sigmoid_output_0: 3bff8c7f
/model.4/cv1/act/Mul_output_0: 3d248bcc
/model.23/ReduceMax_output_0: 39cb0df7
/model.23/one2one_cv3.2/one2one_cv3.2.0/one2one_cv3.2.0.0/conv/Conv_output_0: 3d98a35a
/model.23/Unsqueeze_4_output_0: 3f204a85
/model.22/cv1/act/Mul_output_0: 3d23efc7
/model.23/one2one_cv2.2/one2one_cv2.2.1/conv/Conv_output_0: 3e12f96e
/model.23/one2one_cv2.2/one2one_cv2.2.0/act/Sigmoid_output_0: 3c010979
/model.4/Split_output_0: 3d248bcc
/model.22/m.0/cv1/cv1.2/act/Sigmoid_output_0: 3c087d5f
/model.23/Add_8_output_0: 3e810a14
/model.4/Split_output_1: 3cd1c61f
/model.4/m.0/cv1/conv/Conv_output_0: 3d9f73ae
/model.4/m.0/cv1/act/Sigmoid_output_0: 3bff03fc
/model.4/m.0/cv1/act/Mul_output_0: 3cb302d9
/model.4/m.0/cv2/conv/Conv_output_0: 3d712c8e
/model.4/m.0/cv2/act/Sigmoid_output_0: 3c0455a0
/model.4/m.0/cv2/act/Mul_output_0: 3ca52923
/model.4/m.0/Add_output_0: 3d188fab
/model.4/m.1/cv1/conv/Conv_output_0: 3d42e974
/model.4/m.1/cv1/act/Sigmoid_output_0: 3c00465a
/model.4/m.1/cv1/act/Mul_output_0: 3c510578
/model.4/m.1/cv2/conv/Conv_output_0: 3d880fc6
/model.4/m.1/cv2/act/Sigmoid_output_0: 3c030bd6
/model.4/m.1/cv2/act/Mul_output_0: 3d1180e6
/model.4/m.1/Add_output_0: 3d71d2a9
/model.4/Concat_output_0: 3d44b089
/model.4/cv2/conv/Conv_output_0: 3d5e6774
/model.4/cv2/act/Sigmoid_output_0: 3c03b449
/model.4/cv2/act/Mul_output_0: 3d00f170
/model.5/cv1/conv/Conv_output_0: 3d5af959
/model.5/cv1/act/Sigmoid_output_0: 3c009219
/model.5/cv1/act/Mul_output_0: 3c990bff
/model.5/cv2/conv/Conv_output_0: 3db4f162
/model.6/cv1/conv/Conv_output_0: 3d61fa93
/model.6/cv1/act/Sigmoid_output_0: 3c061289
/model.6/cv1/act/Mul_output_0: 3d001539
/model.23/one2one_cv3.2/one2one_cv3.2.0/one2one_cv3.2.0.1/act/Sigmoid_output_0: 3c012fee
ONNXTRT_ShapeShuffle_256_output: 0
ONNXTRT_Broadcast_454_output: 3e810a14
/model.23/Sub_output_0: 3f1fd8d0
/model.6/Split_output_0: 3d001539
ONNXTRT_Broadcast_253_output: 3b810a14
/model.23/one2one_cv3.2/one2one_cv3.2.0/one2one_cv3.2.0.1/act/Mul_output_0: 3d0ec29f
/model.6/Split_output_1: 3c9a4678
/model.6/m.0/cv1/conv/Conv_output_0: 3d60f681
/model.6/m.0/cv1/act/Sigmoid_output_0: 3c03b3a2
/model.6/m.0/cv1/act/Mul_output_0: 3c905c02
/model.6/m.0/cv2/conv/Conv_output_0: 3d4170b6
/model.6/m.0/cv2/act/Sigmoid_output_0: 3c02932b
/model.6/m.0/cv2/act/Mul_output_0: 3c90483f
/model.6/m.0/Add_output_0: 3d105fea
/model.6/m.1/cv1/conv/Conv_output_0: 3d5f0298
/model.6/m.1/cv1/act/Sigmoid_output_0: 3c01393c
/model.6/m.1/cv1/act/Mul_output_0: 3c9b4829
/model.6/m.1/cv2/conv/Conv_output_0: 3d8ffc8b
/model.6/m.1/cv2/act/Sigmoid_output_0: 3c083c5f
/model.6/m.1/cv2/act/Mul_output_0: 3d00cf9e
/model.6/m.1/Add_output_0: 3d841e7d
/model.6/Concat_output_0: 3d11058b
/model.6/cv2/conv/Conv_output_0: 3d832ad1
/model.6/cv2/act/Sigmoid_output_0: 3c01e7be
/model.6/cv2/act/Mul_output_0: 3d13a042
/model.7/cv1/conv/Conv_output_0: 3d5aee54
/model.7/cv1/act/Sigmoid_output_0: 3c009059
/model.7/cv1/act/Mul_output_0: 3cc0f66a
/model.7/cv2/conv/Conv_output_0: 3d8ee06f
/model.8/cv1/conv/Conv_output_0: 3d3fae55
/model.8/cv1/act/Sigmoid_output_0: 3c02a244
/model.8/cv1/act/Mul_output_0: 3d12c625
/model.22/cv2/act/Mul_output_0: 3d10aede
/model.23/one2one_cv3.1/one2one_cv3.1.1/one2one_cv3.1.1.1/act/Mul_output_0: 3e1f52f4
/model.22/cv2/act/Sigmoid_output_0: 3c01e3a4
/model.23/Reshape_12_output_0: 3e9f4871
/model.23/Expand_1_output_0: 3f204a85
/model.23/dfl/Reshape_1_output_0: 3dc27e3e
/model.8/Split_output_0: 3ce7ece3
/model.23/dfl/conv/Conv_output_0: 3dc27e3e
/model.21/Concat_output_0: 3d28ad0d
/model.23/dfl/Softmax_output_0: 3bdb1482
/model.8/Split_output_1: 3cd1977f
/model.8/m.0/cv1/cv1.0/conv/Conv_output_0: 3da12c45
/model.8/m.0/cv1/cv1.0/act/Sigmoid_output_0: 3c00efe8
/model.8/m.0/cv1/cv1.0/act/Mul_output_0: 3d41cd75
/model.8/m.0/cv1/cv1.1/conv/Conv_output_0: 3d5fc36b
/model.8/m.0/cv1/cv1.1/act/Sigmoid_output_0: 3c063123
/model.8/m.0/cv1/cv1.1/act/Mul_output_0: 3d0f72ef
/model.8/m.0/cv1/cv1.2/conv/Conv_output_0: 3e04d705
/model.8/m.0/cv1/cv1.2/act/Sigmoid_output_0: 3c010a14
/model.8/m.0/cv1/cv1.2/act/Mul_output_0: 3d27ce3c
/model.8/m.0/cv1/cv1.3/conv/Conv_output_0: 3d550c8c
/model.8/m.0/cv1/cv1.3/act/Sigmoid_output_0: 3c0940a1
/model.8/m.0/cv1/cv1.3/act/Mul_output_0: 3d0199ed
/model.8/m.0/cv1/cv1.4/conv/Conv_output_0: 3dbed654
/model.8/m.0/cv1/cv1.4/act/Sigmoid_output_0: 3c010a14
/model.8/m.0/cv1/cv1.4/act/Mul_output_0: 3d8e7e32
/model.8/m.0/Add_output_0: 3d8f8995
/model.8/Concat_output_0: 3d450fb7
/model.8/cv2/conv/Conv_output_0: 3d6d4066
/model.8/cv2/act/Sigmoid_output_0: 3c01f560
/model.8/cv2/act/Mul_output_0: 3cc152a6
/model.9/cv1/conv/Conv_output_0: 3d4afcc7
/model.9/cv1/act/Sigmoid_output_0: 3c0232df
/model.9/cv1/act/Mul_output_0: 3d246fa1
/model.9/m/MaxPool_output_0: 3d246fa1
/model.9/m_1/MaxPool_output_0: 3d246fa1
/model.9/m_2/MaxPool_output_0: 3d246fa1
/model.9/Concat_output_0: 3d62a65b
/model.9/cv2/conv/Conv_output_0: 3d6c7f10
/model.9/cv2/act/Sigmoid_output_0: 3c0cacaa
/model.9/cv2/act/Mul_output_0: 3cd63665
/model.10/cv1/conv/Conv_output_0: 3da299c7
/model.10/cv1/act/Sigmoid_output_0: 3c0758b6
/model.10/cv1/act/Mul_output_0: 3cfda1cd
/model.23/Concat_22_output_0: 3f204a85
/model.23/dfl/Softmax_output: 3bdb1482
/model.23/Unsqueeze_10_output_0: 3e1d4449
/model.22/m.0/cv1/cv1.4/act/Sigmoid_output_0: 3c0213b5
/model.10/Split_output_0: 3cd246b4
/model.23/Concat_20_output_0: 3e1d4449
/model.23/Transpose_1_output_0: 3e810a14
/model.23/Expand_5_output_0: 3e1d4449
/model.10/Split_output_1: 3cfda1cd
output0: 408d891d
/model.23/Unsqueeze_12_output_0: 3f204a85
/model.10/attn/qkv/conv/Conv_output_0: 3d898dad
/model.23/Concat_6_output_0: 3eaa9cfd
ONNXTRT_ShapeShuffle_338_output: 0
/model.22/m.0/cv1/cv1.0/conv/Conv_output_0: 3d7559af
/model.23/Expand_4_output_0: 3e1d4449
/model.23/Unsqueeze_9_output_0: 3e1d4449
/model.22/m.0/cv1/cv1.3/conv/Conv_output_0: 3d5d916e
/model.23/Slice_output_0: 3dc179ad
/model.23/Concat_10_output_0: 3f204a85
/model.23/Range_2_output_0: 3e9d4449
ONNXTRT_Broadcast_251_output: 3b810a14
ONNXTRT_ShapeShuffle_249_output: 3c010a14
ONNXTRT_Broadcast_343_output: 3e810a14
/model.23/Split_2_output_0: 40a1a28b
/model.23/one2one_cv3.1/one2one_cv3.1.1/one2one_cv3.1.1.1/conv/Conv_output_0: 3ec10611
/model.23/Reshape_8_output_0: 3e9f4871
/model.10/attn/Reshape_output_0: 3d898dad
ONNXTRT_ShapeShuffle_239_output: 3c010a14
/model.23/one2one_cv3.1/one2one_cv3.1.2/Conv_output_0: 3f09d408
/model.23/Unsqueeze_7_output_0: 3e9f4871
/model.23/one2one_cv3.1/one2one_cv3.1.1/one2one_cv3.1.1.0/conv/Conv_output_0: 3df199bb
/model.10/attn/Split_output_0: 3d8dd3b7
/model.23/one2one_cv3.2/one2one_cv3.2.1/one2one_cv3.2.1.0/act/Mul_output_0: 3dbdd6ab
/model.23/one2one_cv3.1/one2one_cv3.1.1/one2one_cv3.1.1.0/act/Sigmoid_output_0: 3c010a14
/model.10/attn/Split_output_1: 3d768e12
/model.23/dfl/Reshape_output_0: 3e18f865
/model.10/attn/Split_output_2: 3d8a5d9a
/model.10/attn/Transpose_output_0: 3d8dd3b7
/model.10/attn/Reshape_2_output_0: 3d8a5d9a
/model.10/attn/MatMul_output_0: 3f5d5755
/model.10/attn/pe/conv/Conv_output_0: 3d81c903
/model.10/attn/Constant_6_output_0_output: 3ab67d3d
ONNXTRT_Broadcast_output: 3ab67d3d
/model.10/attn/Mul_1_output_0: 3e1c8307
/model.10/attn/Softmax_output: 3a68d84d
/model.10/attn/Softmax_output_0: 3a68d84d
/model.23/one2one_cv2.2/one2one_cv2.2.1/act/Mul_output_0: 3dbd02b2
/model.23/one2one_cv2.1/one2one_cv2.1.2/Conv_output_0: 3dd55504
/model.10/attn/Transpose_1_output_0: 3a68d84d
/model.10/attn/MatMul_1_output_0: 3d6fcfb4
/model.10/attn/Reshape_1_output_0: 3d6fcfb4
/model.10/attn/Add_output_0: 3d8a6cbd
/model.10/attn/proj/conv/Conv_output_0: 3d4cde1f
/model.10/Add_output_0: 3d8b5db4
/model.10/ffn/ffn.0/conv/Conv_output_0: 3dac02f5
/model.10/ffn/ffn.0/act/Sigmoid_output_0: 3c020380
/model.10/ffn/ffn.0/act/Mul_output_0: 3d66af43
/model.10/ffn/ffn.1/conv/Conv_output_0: 3d9d0a6b
/model.10/Add_1_output_0: 3d90d0b2
/model.10/Concat_output_0: 3d4387d8
/model.10/cv2/conv/Conv_output_0: 3d9744d8
/model.10/cv2/act/Sigmoid_output_0: 3c026a5a
/model.10/cv2/act/Mul_output_0: 3c99894f
/model.11/Resize_output_0: 3c99894f
/model.12/Concat_output_0: 3cebf3d3
/model.13/cv1/conv/Conv_output_0: 3da36cfc
/model.13/cv1/act/Sigmoid_output_0: 3c0aab6e
/model.13/cv1/act/Mul_output_0: 3ca51753
/model.23/TopK_1_output_0: 39cb0df7
/model.23/Range_3_output_0: 3e9d4449
/model.23/Reshape_14_output_0: 3e1d4449
/model.22/Split_output_1: 3cd0b430
/model.23/Reshape_15_output_0: 3e1d4449
/model.22/m.0/cv1/cv1.3/act/Sigmoid_output_0: 3c035930
/model.13/Split_output_0: 3cd553e9
/model.23/ConstantOfShape_1_output_0: 0
/model.23/Slice_1_output_0: 3dc0cc9a
/model.23/ConstantOfShape_2_output_0: 0
/model.13/Split_output_1: 3ca4c017
/model.13/m.0/cv1/conv/Conv_output_0: 3d5a0a02
/model.13/m.0/cv1/act/Sigmoid_output_0: 3c0464ac
/model.13/m.0/cv1/act/Mul_output_0: 3cb2cf60
/model.13/m.0/cv2/conv/Conv_output_0: 3d672978
/model.13/m.0/cv2/act/Sigmoid_output_0: 3c026e86
/model.13/m.0/cv2/act/Mul_output_0: 3cc29de9
/model.13/Concat_output_0: 3ca51753
/model.13/cv2/conv/Conv_output_0: 3d5ef279
/model.13/cv2/act/Sigmoid_output_0: 3c02b8c1
/model.13/cv2/act/Mul_output_0: 3c9ab7ef
/model.14/Resize_output_0: 3c9ab7ef
/model.15/Concat_output_0: 3cd3fd1e
/model.16/cv1/conv/Conv_output_0: 3d5b15a3
/model.16/cv1/act/Sigmoid_output_0: 3bfd4c8e
/model.16/cv1/act/Mul_output_0: 3cb18e2d
(Unnamed Layer* 512) [Constant]_output: 0
/model.23/Unsqueeze_6_output_0: 3e9f4871
(Unnamed Layer* 633) [Constant]_output: 0
/model.23/Reshape_19_output_0: 40955196
/model.23/one2one_cv3.2/one2one_cv3.2.2/Conv_output_0: 3f2a88a6
/model.16/Split_output_0: 3c905cb3
/model.23/Reshape_13_output_0: 3e1d4449
/model.23/one2one_cv2.1/one2one_cv2.1.1/act/Sigmoid_output_0: 3c0212fb
/model.16/Split_output_1: 3ca51ad7
/model.16/m.0/cv1/conv/Conv_output_0: 3d33c49e
/model.16/m.0/cv1/act/Sigmoid_output_0: 3c011ea7
/model.16/m.0/cv1/act/Mul_output_0: 3c745daa
/model.16/m.0/cv2/conv/Conv_output_0: 3d74c879
/model.16/m.0/cv2/act/Sigmoid_output_0: 3c03e8da
/model.16/m.0/cv2/act/Mul_output_0: 3ce94694
/model.16/Concat_output_0: 3cb3482f
/model.16/cv2/conv/Conv_output_0: 3d76beaa
/model.16/cv2/act/Sigmoid_output_0: 3c009d76
/model.16/cv2/act/Mul_output_0: 3ca49719
/model.17/conv/Conv_output_0: 3d65f09e
/model.23/one2one_cv2.0/one2one_cv2.0.0/conv/Conv_output_0: 3db0ab1c
/model.23/one2one_cv3.0/one2one_cv3.0.0/one2one_cv3.0.0.0/conv/Conv_output_0: 3d86780b
/model.17/act/Sigmoid_output_0: 3c00f235
/model.23/one2one_cv2.0/one2one_cv2.0.0/act/Sigmoid_output_0: 3c0608ce
/model.23/one2one_cv3.0/one2one_cv3.0.0/one2one_cv3.0.0.0/act/Sigmoid_output_0: 3c088070
/model.17/act/Mul_output_0: 3ce89594
/model.23/one2one_cv2.0/one2one_cv2.0.0/act/Mul_output_0: 3d12fcb0
/model.23/one2one_cv3.0/one2one_cv3.0.0/one2one_cv3.0.0.0/act/Mul_output_0: 3d3e7557
/model.18/Concat_output_0: 3d02f7f1
/model.23/one2one_cv2.0/one2one_cv2.0.1/conv/Conv_output_0: 3de91a71
/model.23/one2one_cv3.0/one2one_cv3.0.0/one2one_cv3.0.0.1/conv/Conv_output_0: 3d5b5e72
/model.19/cv1/conv/Conv_output_0: 3d966603
/model.23/one2one_cv2.0/one2one_cv2.0.1/act/Sigmoid_output_0: 3c011221
/model.23/one2one_cv3.0/one2one_cv3.0.0/one2one_cv3.0.0.1/act/Sigmoid_output_0: 3c00cf81
/model.19/cv1/act/Sigmoid_output_0: 3c02e5dd
/model.23/one2one_cv2.0/one2one_cv2.0.1/act/Mul_output_0: 3d949eec
/model.23/one2one_cv3.0/one2one_cv3.0.0/one2one_cv3.0.0.1/act/Mul_output_0: 3d109c37
/model.19/cv1/act/Mul_output_0: 3cea1f31
/model.23/one2one_cv2.0/one2one_cv2.0.2/Conv_output_0: 3df5d70c
/model.23/one2one_cv3.0/one2one_cv3.0.1/one2one_cv3.0.1.0/conv/Conv_output_0: 3dbc631e
/model.23/Sigmoid_output_0: 39cb0df7
/model.23/one2one_cv2.2/one2one_cv2.2.0/act/Mul_output_0: 3d421621
ONNXTRT_Broadcast_333_output: 3b810a14
/model.23/Reshape_7_output_0: 3f204a85
ONNXTRT_Broadcast_335_output: 3b810a14
/model.22/m.0/cv1/cv1.1/act/Mul_output_0: 3d1026ac
/model.19/Split_output_0: 3d12de2b
/model.23/Add_5_output_0: 3e010a14
ONNXTRT_ShapeShuffle_331_output: 3c010a14
/model.23/Range_5_output_0: 3e193bf8
/model.19/Split_output_1: 3cb174c9
/model.23/one2one_cv3.0/one2one_cv3.0.1/one2one_cv3.0.1.0/act/Sigmoid_output_0: 3c0aa538
/model.19/m.0/cv1/conv/Conv_output_0: 3d6a1278
/model.23/one2one_cv3.0/one2one_cv3.0.1/one2one_cv3.0.1.0/act/Mul_output_0: 3dbfc127
/model.19/m.0/cv1/act/Sigmoid_output_0: 3c074819
/model.23/one2one_cv3.0/one2one_cv3.0.1/one2one_cv3.0.1.1/conv/Conv_output_0: 3e43119f
/model.19/m.0/cv1/act/Mul_output_0: 3c5b4360
/model.23/one2one_cv3.0/one2one_cv3.0.1/one2one_cv3.0.1.1/act/Sigmoid_output_0: 3c010a14
/model.19/m.0/cv2/conv/Conv_output_0: 3d905142
/model.23/one2one_cv3.0/one2one_cv3.0.1/one2one_cv3.0.1.1/act/Mul_output_0: 3dc47993
/model.19/m.0/cv2/act/Sigmoid_output_0: 3c099425
/model.23/one2one_cv3.0/one2one_cv3.0.2/Conv_output_0: 3ebb7ef0
/model.19/m.0/cv2/act/Mul_output_0: 3ce7239a
/model.23/Concat_output_0: 3ea80cf3
/model.19/Concat_output_0: 3ce7239a
/model.19/cv2/conv/Conv_output_0: 3d886c68
/model.22/m.0/cv1/cv1.2/act/Mul_output_0: 3d440537
/model.23/Reshape_9_output_0: 3e9f4871
/model.19/cv2/act/Sigmoid_output_0: 3c087b15
/model.23/Transpose_2_output_0: 40a1a28b
/model.22/m.0/cv1/cv1.3/act/Mul_output_0: 3d10a3b5
/model.23/Flatten_output_0: 39cb0df7
/model.19/cv2/act/Mul_output_0: 3cfe5be3
/model.23/one2one_cv3.1/one2one_cv3.1.0/one2one_cv3.1.0.1/act/Mul_output_0: 3d26fccc
/model.23/one2one_cv3.2/one2one_cv3.2.0/one2one_cv3.2.0.1/conv/Conv_output_0: 3d67441b
/model.23/Unsqueeze_3_output_0: 3f204a85
/model.23/Constant_14_output_0_output: 0
/model.23/Constant_15_output_0_output: 3c010a14
/model.23/Split_1_output_1: 3f05e39e
/model.23/Concat_15_output_0: 3e9f4871
/model.23/Expand_2_output_0: 3e9f4871
/model.23/Mul_5_output_0: 40a1a28b
/model.23/one2one_cv3.1/one2one_cv3.1.1/one2one_cv3.1.1.1/act/Sigmoid_output_0: 3c010a14
/model.23/Split_1_output_0: 3e18f865
/model.23/Range_output_0: 3f1f4871
ONNXTRT_ShapeShuffle_157_output: 3c010a14
/model.23/Transpose_output_0: 3f204a85
/model.23/Concat_25_output_0: 40a1a28b
/model.22/Concat_output_0: 3d24ef1a
/model.23/Range_4_output_0: 3e193bf8
/model.22/cv1/act/Sigmoid_output_0: 3c01f4e4
/model.23/GatherElements_1_output_0: 39cb0df7
/model.22/cv2/conv/Conv_output_0: 3d5a5175
/model.23/Range_1_output_0: 3f1f4871
ONNXTRT_ShapeShuffle_167_output: 3c010a14
ONNXTRT_ShapeShuffle_321_output: 3c010a14
/model.20/cv1/conv/Conv_output_0: 3d9042bb
/model.23/one2one_cv2.1/one2one_cv2.1.0/conv/Conv_output_0: 3d872e61
/model.23/one2one_cv3.1/one2one_cv3.1.0/one2one_cv3.1.0.0/conv/Conv_output_0: 3dc923f0
/model.23/Reshape_output_0: 3ea80cf3
/model.23/Constant_16_output_0_output: 3b810a14
ONNXTRT_Broadcast_170_output: 3b810a14
/model.23/Reshape_4_output_0: 3f204a85
ONNXTRT_Broadcast_172_output: 3b810a14
/model.23/Reshape_3_output_0: 3f204a85
/model.23/Reshape_11_output_0: 3e9f4871
/model.20/cv1/act/Sigmoid_output_0: 3c0abdf9
/model.23/one2one_cv2.1/one2one_cv2.1.0/act/Sigmoid_output_0: 3c00e00c
/model.23/one2one_cv3.1/one2one_cv3.1.0/one2one_cv3.1.0.0/act/Sigmoid_output_0: 3c01f3dc
(Unnamed Layer* 393) [Constant]_output: 0
ONNXTRT_ShapeShuffle_175_output: 0
/model.23/ConstantOfShape_output_0: 0
/model.23/one2one_cv3.2/one2one_cv3.2.0/one2one_cv3.2.0.0/act/Sigmoid_output_0: 3c063aae
/model.23/Concat_24_output_0: 3f296d0a
ONNXTRT_Broadcast_261_output: 3e010a14
/model.23/Reshape_5_output_0: 3f204a85
/model.23/Reshape_6_output_0: 3f204a85
/model.20/cv1/act/Mul_output_0: 3d00b694
/model.23/one2one_cv2.1/one2one_cv2.1.0/act/Mul_output_0: 3d1121d0
/model.23/one2one_cv3.1/one2one_cv3.1.0/one2one_cv3.1.0.0/act/Mul_output_0: 3dc2947d
ONNXTRT_Broadcast_180_output: 3d810a14
/model.23/Add_2_output_0: 3d810a14
/model.22/m.0/cv1/cv1.4/conv/Conv_output_0: 3d9e960c
/model.20/cv2/conv/Conv_output_0: 3da2ed78
/model.23/one2one_cv2.1/one2one_cv2.1.1/conv/Conv_output_0: 3db16672
/model.23/one2one_cv3.1/one2one_cv3.1.0/one2one_cv3.1.0.1/conv/Conv_output_0: 3d899892
/model.23/one2one_cv3.1/one2one_cv3.1.0/one2one_cv3.1.0.1/act/Sigmoid_output_0: 3c00a875
/model.23/dfl/Transpose_output_0: 3e18f865
/model.23/GatherElements_output_0: 409f6fcd
/model.23/Reshape_2_output_0: 3f07efd2
/model.23/Reshape_17_output_0: 3e1d4449
/model.23/Expand_3_output_0: 3e9f4871
/model.22/m.0/Add_output_0: 3d900911
/model.22/m.0/cv1/cv1.4/act/Mul_output_0: 3d92ec0f
/model.23/Expand_output_0: 3f204a85
/model.23/one2one_cv3.2/one2one_cv3.2.1/one2one_cv3.2.1.1/act/Sigmoid_output_0: 3c010a14
/model.23/Concat_2_output_0: 3f07efd2
/model.23/one2one_cv3.2/one2one_cv3.2.1/one2one_cv3.2.1.1/act/Mul_output_0: 3e1301e9
/model.22/m.0/cv1/cv1.0/act/Mul_output_0: 3d68fd13
/model.23/Split_2_output_1: 39cb0df7
/model.23/one2one_cv3.2/one2one_cv3.2.1/one2one_cv3.2.1.1/conv/Conv_output_0: 3e80d779
/model.23/one2one_cv3.2/one2one_cv3.2.1/one2one_cv3.2.1.0/act/Sigmoid_output_0: 3c010a14
/model.23/one2one_cv3.2/one2one_cv3.2.1/one2one_cv3.2.1.0/conv/Conv_output_0: 3e0f7d25
/model.23/Gather_11_output_0: 40955196
/model.23/Reshape_16_output_0: 3e1d4449
